11111011
00000111
11110101
00111110
11111110
11111100
11111101
11111010
11111010
11111101
00000001
11111100
00000000
00000101
00000011
11111111
11111101
11111110
00000110
00001001
00110011
00000101
00000001
00000100
00000000
00001100
00000000
00000110
00000001
00001111
00001001
00000111
11111011
11111110
11111101
11111011
00000000
00000000
00000101
00000101
00000000
00000100
11111110
11111111
00000010
00000101
11111100
00000000
11111010
11111111
11111101
00000101
11111110
00000000
11111000
11111101
11110111
11111110
11111110
11111100
00000111
11111011
00000011
00001100
00000000
11110011
11111001
11111100
11111011
11111110
00001001
00000001
00000110
00000001
00001110
00001110
00000111
00001001
11111101
00000100
11111011
11111110
11111111
11111111
11110001
11110001
11100110
11110011
11111001
11110000
11110100
11111010
11111110
11111101
00000100
00000101
