11110011
11110110
11111001
00011100
11111100
00000001
00000010
00000110
00000100
00001101
00000101
00000101
00000111
00001000
11111100
00001111
00000011
00000100
11111101
00000111
11001000
11101111
00001001
00000010
00000010
00000000
00000110
00000000
00000000
11111011
00000001
11111110
11111100
11111011
11111100
11111001
11111011
11110111
11111001
11111000
11111111
11110110
11111110
11111110
00000010
11111010
00000010
11111100
00000100
00000000
11111111
11111110
00000001
00000101
00000001
11111100
00000000
11111011
11111011
00000000
11111010
00000111
11111111
11111000
11111101
11110101
11110101
11110110
11111110
11101111
11110110
11111110
11111111
11111110
00000001
00000001
00001001
00001011
00000110
00001011
00001001
00000001
00000110
00010001
00010011
00010100
00001101
00001001
00000101
00001000
00000010
00000110
00000001
11111111
00000000
11111101
