00000110
11111010
00001001
00000101
00000110
00010011
00000111
00010001
00001100
00010110
00001101
00001100
00001111
00001110
00000110
00010101
00000111
00001011
00000100
00010011
11101011
01011111
00001111
00001000
00000101
00001001
00001000
00000011
00000001
00000100
00001000
00000100
00000101
00000101
00000100
00000101
00000100
00000001
00000000
11111111
11111111
00000001
00001011
00000001
11111111
00000100
00000001
00000101
00000111
00000100
00000000
00000100
00000000
00001001
00000010
00000010
00000000
00000001
00000000
00000100
00000010
00000101
00000100
00000001
00000010
00001000
00000111
00000000
00000111
11111110
11111011
00000101
11111111
11111111
11111111
11111100
00000000
11111111
11111101
11111101
00000000
11111110
11111110
00000010
00000011
00000010
00000010
00000000
00000000
00000010
00000000
00000010
00000001
00000000
00000001
00000000
