00011011
00000000
00011001
11110011
11111100
00001000
00000101
00010011
00000111
00011010
00010101
00010000
00000000
00010011
11111010
00011110
11111110
00001110
11111110
00001011
11100011
11110100
00010000
00001100
11111101
00001111
00000101
00001010
00000000
00001100
00000011
00001101
00001001
00001100
00001001
00000111
00000000
11110001
11110010
11100111
11111101
11010100
11111000
11110100
11101110
11011001
11100010
11101001
11101001
11111101
11011101
11101011
11110101
11111011
11101110
11010111
11110000
11100001
11111010
11110111
00000001
11111010
00001000
11111110
00001101
00011010
00010100
00001110
00001000
00001000
00000011
11110111
11111010
11111111
11111101
11111110
00000100
11111001
00001000
11111100
00001100
11101100
00000100
11110011
00000111
11110101
11100111
11111111
11110101
11111111
11110111
00000000
00000111
11111101
00010100
00001011
