00010101
00000001
00001101
11111000
00000000
11111001
11111111
11111100
11111111
11110100
11111111
11111111
11111000
11111011
00000001
11111100
11111100
11111101
00000001
11110110
00011100
11010101
11111011
00000001
11111101
00000101
11111110
00000111
00000000
00001100
00000011
00001001
00000110
00000110
00001000
00001001
00001011
00001000
00001000
00000110
00000101
11111101
11111000
11111111
00001010
11111011
00000110
11111101
11111001
00000010
00000011
11111011
00000000
11111101
00000010
11111101
00000110
00000010
00001011
11111101
00001011
11111110
00001101
00001000
00001010
00010110
00010011
00010011
00001011
00011010
00011001
11111011
00010100
00000111
00010110
00010110
00001111
00010011
00011111
00010111
00010010
00001011
00010001
00001011
00010000
00001100
00001010
00001110
00000110
00001110
00001010
00001010
00001011
00001011
00010001
00010000
