11111100
11110101
11111000
11111100
11111100
11110111
11111000
11110001
11110010
11110100
11110101
11111001
11111001
11111010
11111011
11110010
11111100
11111011
00000110
00000010
00111010
00000100
11111001
00000101
11111110
00001001
11111101
00001011
00000001
00011001
00010001
00010000
11111000
11111010
11111010
11111001
11110111
11111010
11111101
11111110
11111011
11111001
11111010
11111100
11111010
00000001
11111010
11111010
11111001
11111100
11111100
00000110
11111111
11111101
00000000
00000010
00001011
00000111
00010000
11111111
00011010
11111110
00010110
00010101
11111110
11110011
11111111
11111010
11110111
11111010
11111101
11111000
11111010
11111111
11111110
11111101
11111100
11111000
11111100
11111001
00000001
11111010
00000100
11110110
11111101
11110110
11110101
00000010
00000100
00000100
00001011
00001001
00001000
00001011
00010100
00010101
