00010010
11111101
11111000
11111110
11110011
11100010
11110000
11101000
11101011
11010100
11100010
11101111
11100000
11101000
11110010
11011010
11110001
11101010
11101111
11010101
00001101
00111100
11011110
11110001
11110101
11101100
11101110
11111010
11111111
11111000
11101000
11111011
11111111
00000000
00000010
11111001
00000010
11111011
00000011
11111010
00000100
11110010
00000110
11111011
00001010
11101101
11111111
11101110
11111001
11110101
11111110
11101000
00000001
11100101
11111100
11101111
11110110
11110001
11111100
00000010
11111000
11110011
11111100
11110010
00000111
00001100
00001110
00001101
00001000
00010010
00010101
11111011
00010111
00000111
00011100
00010110
00010011
00011011
00101001
00100100
00010101
00010001
00010011
00010011
00010010
00001111
00001101
00001110
00000101
00001101
00000001
00000100
00001000
00000011
00000100
00000111
