11110011
00001011
11110100
11111110
11111010
11111000
11111100
11111100
11111010
00000100
11111101
11111111
00000011
11111111
11110111
00000110
11111100
00000000
11111101
00000011
11100101
00001100
00000011
00000100
00000001
00000111
00000001
00000110
00000001
00001100
00001010
00001100
11111000
11111011
11110110
11110100
11101111
11110011
11110101
11110101
11111010
11101111
11111100
11111100
11111010
11111001
11111101
11110110
00001000
11111101
11111100
00000000
00000001
00000100
00000100
11111111
00001101
00000010
00001100
11111110
00001101
00001001
00010000
00000111
11111100
11110011
11110001
11110011
11111001
11101100
11110001
11110010
11110101
11111101
11111000
11111010
11111111
11111101
00000011
00000010
00001000
00000000
00000111
00000110
00010110
00010000
00010000
00010011
00001010
00010011
00010000
00001101
00001011
00001111
00001111
00001110
