1101010011101011111101111110111111110111111100000000100000000010000010111111111111100010111100110000101011101001111110111101011100010100111000001111010111110011001100101101010011011100111001011111100011110110000111110001111100000100111101111100110111101001
0000001000011000001100011111001111110101111000111110010000011101111011111111110111101011111011010010110011111110111101001101111000011101111010010001100000111101000100000000010000001011110110101110010000001010111110110000111100010001111100000000000111101111
1111111111110001111100111110001000010000110101111101110111101101000100100001001011111000000001001111000100001101110110101110101100011100000111011101010111111000111110001111110111110110111100000001000100001011110010110010011000010100111000100000101111110010
0000100100011000000000000001001000010000111101001111010011010001111100111110111111101110001000111101101111101100000010010000111100000100111101111111100111110101111000011110111011110100000110110010101011101110000011001101001100010000101111001110001000010100
0000010111110101111001111111001111111111000001011100100011110100001101000000100100000111000011000001010111100101111111011110110011100111000011001111110100010110000001011111111011100010111101100000001000010100000000000001010100001000111001110000011100010110
1101001000000101111111110011001111101101110111010000000111000011001000011110111111111001000110000000001000000100111100000001111010111110000111001111010111110110001001111111101011100001000001011111110111111011111110111111100111110001110111110000001000011111
0000001100001100111000001110100011101000111101111101111011111110000011000000011000001101000010001100010100000111001010001111000111111110000110101111100011100001111001100001101000100011111111100010001100010101000001101110100000001010111101001111011100001100
0000000100010011000001111111010011011000000000011110111000010001000101010000000000101011000010111101010100010100000010001101000100010010000000000000111011101100111111010010110111100011111000101110011111111101110111110000111011000111010000001110010111110011
0000001100000001000001000001111000000001111100101111011011010110111101011110011011011101111101111110001010111110000000011110110111110010000100111111101100001010001101110001100111110111000001100000100000001100111110001110101000010110000000011111111000000001
0001010100001000000110001111011111011111001111001110101100010110000001100000111011110101001001000000011011101000111111010000110100100101000001110000011111111110010001110000110000100001000010011111001011101100001010111110011011101010111110001101110100001000
1111111000000110111000000000010111101111111110000010000011011101000001010101000100011011111111001110100111101110111010100000000111110001000010110000101100100101000111010001000000001000001010111101001100001010000101000001100100011011000100111110111111111011
0001000100011000001001011111010011011000001010100000100000000001001001000000011000001110000001011101100111111111111110110001111111111101111111001111100100010100111000100010011111011111110110100000010000100100000000100000011011111001111111010000111000010101
0011010011110111110111000000001111110101111100010001110110111001111000001111011100001111000110110000011111101100110100111111100111110110000100110000111000001011000010000000111000000011001110111110010011110010000001100001100111010111110110110010110011101100
0001011111101100001001110000011011101110110100011111011011110101111110110010100100111011000011100100010011101000000011000001010111100111000011001111011100001111111100000001000011101010111101000010001011100111001001101101101011101011111100000000001100000011
1111011011110000000100110010110111100101110111011110011011100110111011000000000000010001000010010001001000000101000010110010111000010111101100110001001000001110000100000001011111100111000001000001111100001010111000010001010100011000111101000000110111011101
0001101011100011111100000010100100000100111100000000011111111110001010000000010100001111000100000000000100001000000111011111010111111110111111000001100011110110110100010001011011111111000101111111100000101101111100111101011111100010111110010000011111100001
1101001111010110000010000000100000001001001001001110100100011101111010001110101100010101110101011111101100011001000111100000010100001010110110110011001000001010111100001111111100100010000001001110100011110010000100011110101011111010111101110000011000001011
1110101111010010000000000000101011101001001000010000000111110111000001010001011011011100000110000010010000000010111110110011001011010001110010101101011000001111110100010001010111101001111001111111111000001100111101000000100100101111000001000010101101000000
1110001111110000111100001110110111111101111100100000110000100100111101010000000100000011000010111111010000000010001011000000010111011110111110011111111111011101000110011110101100001100000011011101010011111011111111000000111011100111111101111111010111111000
0011001100000101001010001111101100101110000101111110000000001011000000101110111111110000110010001111000111100111111001101110011100111000000000000000111100000001111101110000110000011111000101101110101100010110111010101111010000100001000100010000111111110101
1101100000011001000001100100101100001111000001011110111111100110000001100000001000010110111010010000101011010000000100111101010100100001111101000000001100000110111111001110110100000100111000010001001000011110001001101111100100010000001010000010001100000000
0001110111101110111011101110101011011010111011001110110111100111110101110000001000011011110101100000010011011100111001000000100000010111111111011101110111000011111101101110110100001110111110011111010111110011000110100000101111110001111110011110110000110001
0000111011011001111100000000110100011010000010011111001111111000111010001011111000010011111110100001111000001111111100111111110100001100111110111110011111001100000101110010100000001111110101010000100111110001000001110000010100010100110111010010010011010001
1110000100000000111001001011101011010110000010100001010011110011000101011101001011100010000110111110010000001000111111100011001000100100000110010000110111111101000101101101100100000000000011101111101111110100110100111110111111101000000001101110000100001101
1110000000001010000010101110100000000011000010101110111000101010111100101110111011011001000101110010101100110001000110100000100011110100000101111111010011110110000010000001001111101111000011010000110100010010111001001111011011001101111100110000100011011101
1101111100100010111110110000101100010011111110011111000100010110000010010001000000010100000000111101100011011011111111001111001000010111000101111111101000111000000011110010000100000000000111011110001111111011000110110000011100010000111010111110001111100110
0000101100110000111111001111101100001011000100010000010000010101111010111101101011111111000101110000101000001000110110011100110111101010000110110000000011010010000000000000101100001111000011101101010100000111111111010000001011101100000001100001101000001000
0001111111110010111100110000110000110010000101011110100100010011111101101111111111110111000010101111101111101001110011001111001111100111000001000001101100011001000001001110011011110001001010111111100100011110111010100000110000101001111111101110111111101101
1111011111110110001111000000001011100100111001010000001000010111111010111111101100010111111111001111111100010001111100101111101100010010000100100010000000000101111001111111010011110101000110101111110111101001111000110001101111111100000111000000101011011100
0000100100001000000011011101111000001101111111010001010011011100000001111110100000010010111110010000010011011100000010101101010011111000110111001101111100000100000101010001111011011100000000110001000011010100111101000000111111100010111000001111101100010101
1110000111100001111010101111011100000101111001000001010011110011111100111110111000001111111001100001110000001000111011101111110100110111111001110001101000001000000010110000111000111100111111100010101111011111111000101110110000001111000100111110111011101110
0000101111010101001000010001110100000000000101000000111011110110111110010000100100001001000111001111000111110001111001110000010011110010111111001110100111110110110101000000111000001011111110111111101000100000111010111111100011100000111101101111000011011101
0001001000001001000110010000010100011111111101100001101111100101111110110001111000110001001001101101100100001100000101111110001000000001111110001111000111101010111011100000101011100000000111010000001100010011000000011110100100001100110101101111011000000101
1111110000001101111000101111111100000111110111110010100011101101000000011110010011010111000100001100011111110000110111011111011100000000111101001110111011101011000100011110011011101111000101100000100000011000000010000001111011011000111001100001011011100001
0001110111111101111001010011101111110100111100000010000100010010000111111110010100010000000001110010011111101110000110101111110100110101110011001111110100001101111101101110111100001010001100101011100100001010000000101111100000000010000011010000010111001110
1110110111111001110101111111011111111010000011110000010000101010110110101110011111010110000000011110011011000110000010101101010100010111111110111101100000010000000011010000000111111010000101101110011100000111111000111111100111110110111110110000010000000000
1111111001000101001000010001110011110111111001100000011011111111000011100010011110111100000101101111010111101001000110100001010000001101000111011110100100100010000110010010110111101110111110011111001011001100000001101100010111101100111001110011111011110011
0000101000001001111001001111101000001011000011101011001011110110000010111111101011110100111100100001010011100011111011111100111000011101111111011110001111101011111101110000111100010100000000011101000100001100000011010000000000010000000010010000010111101101
0001110011110010110100101101101000011000000010000011110111111111110101110011011010110111111011110001011000010011000111011111000100001010001001000001101011101000000010100000011011101001110011101101000011110010000010101100110100011100111111111110111111110101
1110100111101010001000101110100111111111111011011111111111011101000010110000111000000100000011001101111000010000000011010010011011111110110101101111100011111111110100101111011100000101111010000000000111110011111110110010111100000000111111011110010000010010
0011001111011100111111000001100000001100111011111110101100000111111100110001100011101001111011001111101100000010111001110010001011010010000000011110101011111010111001010001001011101010111110101111000000011100000101101101110100001000111111011110011000000110
0000101100000111000001101110110000000101000010111111100000100011000100111111011000001011111010000001101111110111111111000000100111110110111111001110101011110110111110000011010000100100000001100001100111101111000101000001001000101000000000001111111011110011
1111111000110111111011011101011011111010111010010000000100010001111010101110010111101100111101101110011100001111111110001111011000001000111010101110010100010000000110000000001011011011111111101101101111100110000010110000011100000000000000100000101000000011
0001101100100100111100111111110000011101111110011111010100011001000110110000011011111011110100001111011111111000000000000011000100011001111100000000011000001011111111100010111111111101000101001110001000000101000001000000011000001010001010100000100000010101
1111001000101001111010000000010011101010000011010010100000000011111100100000110111100001111011010000110100011001111100101111111000001110110111101101101111101011000011100000101111101011001010010010010011001010001100011101110000111001110101110000100100001101
1110100011111111000110110000010011110011000010110001101111110011000000001111100000011110000010100010011000010111000001000001101100000000111101000000101111010010000101001111001100101001000010100000011000010100000110010000110000001010111101001111000111100000
0010001011001001000011001111001011101101111001101111101101000101000101110010001100000001000100100000101111100001111011010000110100000100000011110000010011110010111110001111111111111000000001111111100100010111000010011111111100010100000000101110111100000011
0001101000010111000111010000011011111111111000110000111000011000010000011111011100001100111001111011111100001101000101110001000011111000111001010010000000000000000100110011000011011101110101110000001011100110111010110001011000000010111111110000001011111100
0001000100000011000011000011011100100101110101111101110000011111111101100000011011111110000110010011100000000010000011100000001100010001001110000000001111100110000110100000101000001111110101000001101011100111111111100000000011101011000000100000111100000110
1111001011100101000000001101011100010000111101111101000100000000000111011100001000001001111100011111110111010110001100000000000100000011111010100000101000011100000101110000000000010111111110111110011000000110001011101110101100001111000110100010000100000101
1111100100000100000011101111011100101110110101000001010011110110001001001101011000000100111010110010110000001100111100000000101100001110000110001111001100000000111011100000011111010110111011011111101000010010111011101111111011101111000011101111100100010100
0000001100000101111110000010001011101101001000100000000111100000111111110000101111011001111100011110101111111100000000001110110011100100111010110000101100010100111111111111011100001000000000001110111000100001111111110000000100011011000000001101100000011101
1101011100011100111111010000000011111011001010101101010100110001001000011110110011011101000010001110011011100110000000110000100000010010001011000000110111111101000011000000111011111111000011010000000100100110001000111111010100100110111000011111011111011110
0001101111110000110110110000110100100010000000000000010011100101111010101111101000100000111001101110100011011011111100111101010100011101111111001110010000011100000111000001010111101001000010100011101100000110000101101111100011101001111101111110011100000011
0000010100111111111110100000100100010110111101101111101100000010111111111110100011110000000001101110011111011111000001011110010011110010000011110010100111111111000110100000110100011000000010111111111011111111000000000000011111100010111110110001000111010001
0000111111110001111110100001110011110101111111010001011011111001111110001101011011101010000000110010011011110010001000111111010100100010000011010001011111110100111100000000101011100100110100100000111000100110001001001111010000000010000001001101101111101111
0001100111111000001001000010111100001100000001000001010000011000000001000001001011101110111000001110101000000100001010100001000011101001000101001110111111110101111101101101100111101010110001011111111011011111000010011110000100011001111100011100101100011111
1111101011101101110111000001001111001101000110000011001011111111000110101101100011111111000001100001011000001000110011101101110011111110111000000000110111111111000011001110100111010000000100000001001100011100000011011110000000000000000101011111100111110011
1111101100001011000000101011111000001000111110110000101111110110000000101111011100010011111011001111101011011001111101110001000111110001111010101110000100100000111011100001101100001000111110010010010111101100001011110001000111001001000001100000110011111101
1111100000000001111011100001010011100110111101110010100000011100000110001101100100011010111011010000100000010000000001101110010000001111000011010001101011011010111010000000001100010011000001011110111000011100000101001110010111011111111000101110100011100011
0010011100100001001010100001100100100101000110101111001000011011000000101111001011110111001000101110110100001011110010001110111011111011111101111110000000001110111010110000001111111010111011011111111100010101000100010001111111011000110110111111111100100111
0011010100001000000001000000110011011111111101111101100011101111000010110011001011111010000000111110011011001001000101101111011011110001111100110001101100001111001100100000010111110110111110111111010011101000111111101110110111111100001000001111101100001000
1101111011110000111100011111101011110101111111100001110011110110001100010000000011001011000001011101100101010101111101111111011011101010000110000011001111110101000010001110100011110001110100010000011111101000111000010001111000000100111110100001011111010110
0001011111100001000101100010100011111011000101100011011111110111000101111110001011111000010010001110010000010111000110111111101111101110111100110000111111101100000000011101011111101110000001011110111011100110000111001101011111101000000111010000101011111111
0010111111110101111111001110111000100010000010001110010000001010000110000001000011111100000110000001010111111001001100011110101000010111001100000010011000110001111011011111010100110010111000100001100111011111110111010011000000001010000000110010111000000000
0000011000000100000000101101100100001100111101001111011111101000111111110011101000001010000000001111011011101000111101000001010000001000000101111111110100000111111011011111111111010111000100000001000100011100111110101111011100100010001101110001010100010100
0011101011111100111110001110001011101001000001111110101111101110111111011111111011111001111111110000001011110110111011011110001100011100111111011111110000010010110111101101111011110100000100011110111111111101001010101101111100001001111101100000111100000011
1011101000011000000000101111110100000011110010100000111100011000001011000010011100000100000010010001001000101100111110101111100000010100110110111110101111111011000000100001010100001001110100110000100100010100111000111111000100010110001001100001110100010110
0010010000011000111010010000011011101001110101011110100111111010001011010000011100011011000011010000010111101111110011101101111000100011000101110010000111100010110110001101011011110001111101111111101000011100111111110000101011111110111001101111001111101111
0010101100000101111000011111011011111000111110101111011000010001110110010010000100001000000001100000101011111101000101110000111111011111110100111111011000000011110101011111110111110001110111000000011011101000000010111101100011111011111010001111101011110100
0010000011101000111010011101011111110110000001011111001111110110111100100001101011110100111010111111110100100010111110011110111000010001111011100000010100100000111111110001100000110111000001100001110011101100111000011101101100011100000001011110110011110111
0011100100001000000010001110111111110001111010110000000000000000000000011110101000101011111011110010110000001100111011110001101000010001111100101111110111010101111111110000110100001010000110001111011011111111000101000010010011101011111101011110010000000010
1111100111111001001111000000000100000101001000100010000111011111111111000000100111111001111111110001100111100001110011000001101011011100111010110010001000011001111000101111001100101111111010100000010100001001111011111101101111110110010000101101100111101010
1110010011100101111011000010110011100100111101010001001000011010000000100000011011010101000001101110100111101100001010000000010000101011111001100000011011111111110100010000111000000101000001100000001111110101000101110000111011110111111000110000001011111011
1111110100011000000011000001100011110001111001100001110000010011111111000010001000001010111111000010110101000001110110100001001000100000111111100000110100100000000011010000011111111000111100011110110000101000111111111110010000010001000010011111111000010011
1111110000001000000101001111110011110110001011011111011000000110111100111110000100001110000100110000001011110100000101110000010100001010000011100001000000100001111010100001011011100001111000110001000100101001110011101110100100001111110011001111000100000000
1111111100100010111110101110110011111110111101101110111011111000110111111111111011110011111010110001000011101100111101111111100111110001000011111111100000001101111101001111011011011101111001111111110000001000111101001101101111001110000001000000100000000101
0001100100000111000100000000000111111100000111001110001111110001111000101011100011011100001010111101001111110101111011101111011111011010111111011111101100111111000100100001101011110011111101000011001011011101000101101111010011110101000101001100110100000011
0010001111111101001110010000000100101110111111001111011000100011111111100000000111111110000000110000011000010101110111101101101000100000111010101110011000011011000001010000001100001110111010011111000100001001111111010000000011111101111001001111101011111010
0001010111111011111101011111111000101000111011001110001111101101000011100001101000101001000001101111001011101111111001011101001000111001000101111101101011110110111111010010000000001110110110001110101111100110111111000000101111110010110111010010010011101000
1111100100001111000001011110111111101000001010001101110111101011000100000000011011100101111111011110100011101011111111111110010011111000000100100001001111010101111100010000000100110100111001111110111100010110111100111101100000010000000000010000010011101111
0000000100000001110110111110100011111000000101011111100111101100111010111101111111101101010000111101101111101100111011010001100111111001110110010001010011110111111111011101010111110000111101010010010100100101111110010001010100000111111101000000010100000001
0011010011110111000111111111001100000010111111001101011000100100000001110000110011001010001001100000000100100101111110000000000111001011001000001111100111110011111110010000001000001101000000011110000111111100111111011111111100010111000010001101011000101011
0001101111111100111010011111110100011111111111000001000111001111000100001011000000001011000100101111000100000111000100100001000011100111000010100001100000010010111101001110110011101110111111101110011100000001110101001101100111011110111000110000010000100100
0000001111111011000010111110000111011110111111000000001100100001000011011110111100100100111111011110010010111000110110001111111000100100001011001111000011110100000000100001001000101100001001111110110000001010000010100000000000100111000011111110100000001100
1111001100011001000011111111000111110101000100011110011100100100111110111111010111111011001011101100100111100110111110001110110000101010111010100000101111111010111010010001001100001100000101011111110100011100111100111110101000001111111001000010110011110000
1110000100101110000110000000111100001101110011101111110100000110111101110001000111101010111111110010011000001000000000001111010011100110000101001110110000101100000000011111010111111111000011001111110100100010111100111111100111101100110111011111001000011101
0001010011110010111100100000001111110011111001011111011100001101111001100001100000100000001100100011000111111010111100000001000011111100111011010001101000010001000101101111000000001100000010110001010100000000111101100000010011111010111100010001000111110011
1111111100010011000011001110111100000110001000100000110100000011110111011111001100010111111010001110010011110101000011101111100011110100111111100000101011000110110001010001111011100101111110111110110000110001000011111101011111100111000100010001110100001111
0001011000001111000001010010001000100010111010010011010000010011000010001101010111101100111110101110100100100101001000001110100100001100111110001110010011100100000110001110100011101001111110111100100000000100000000000000111111100011111001100000101011111110
1100100100010001111111001101110011110011000000100000110111100100000011100001010111110011111000001110111011100011000011010000101011111111111110010001000100001110111011011111000000000111111111001111111111010111110001011100111100000011001000010001001100010001
0000110111110101111110001111001111110111000001000000111000000001000000001111011011110000111011011111011011100100000001111111001100110001000101000010011100000011111001101100010000010101000011110000101111111111110101001110011100001111110111000000100011101001
1111010111101111111001100000111011110110111111101110001100100000001000110001101011100010111110011110011100000110001000001110101011110110111010001110110111101011111110111111110111010111111001101111110011110110111101011101111011000110111101010000010100101001
0010100000000110110110000001011111111010111101001111110010111000111111000001010100000000111011110000001111011010110110100000000011110110000001110000100011011001000000110000001011110110111000010000011011111101000011110010100111111110111000011111101111101001
0000001111101100111001111100111011111111111111110010110100000100001110110110000111111101111001001111100000000110111010110000111000010010000000100000001111100011111101001110101000101110000010101101000111111110111110010001110111101010000010001111011000100111
0001011100011100000011011111000011011000111111110000100100011101000001111110100111011010000000001111110011101000110111010001110011011011111101011110110000000101001000001111100100001000111010111011111011011100000010011101111011101001000000111111111011110011
0000000000000000000000000000000000000000000000000000000000000000000000000000000000000000000000000000000000000000000000000000000000000000000000000000000000000000000000000000000000000000000000000000000000000000000000000000000000001110111011000000101000010001
0000000000000000000000000000000000000000000000000000000000000000000000000000000000000000000000000000000000000000000000000000000000000000000000000000000000000000000000000000000000000000000000000000000000000000000000000000000011110011110111001111101011110001
0000000000000000000000000000000000000000000000000000000000000000000000000000000000000000000000000000000000000000000000000000000000000000000000000000000000000000000000000000000000000000000000000000000000000000000000000000000011100010000100110001100011101110
0000000000000000000000000000000000000000000000000000000000000000000000000000000000000000000000000000000000000000000000000000000000000000000000000000000000000000000000000000000000000000000000000000000000000000000000000000000011011100111101000000011111110001
0000000000000000000000000000000000000000000000000000000000000000000000000000000000000000000000000000000000000000000000000000000000000000000000000000000000000000000000000000000000000000000000000000000000000000000000000000000000001010110001110001011011000011
0000000000000000000000000000000000000000000000000000000000000000000000000000000000000000000000000000000000000000000000000000000000000000000000000000000000000000000000000000000000000000000000000000000000000000000000000000000011111101111011100000000011111111
0000000000000000000000000000000000000000000000000000000000000000000000000000000000000000000000000000000000000000000000000000000000000000000000000000000000000000000000000000000000000000000000000000000000000000000000000000000011101011111100110000111100010101
0000000000000000000000000000000000000000000000000000000000000000000000000000000000000000000000000000000000000000000000000000000000000000000000000000000000000000000000000000000000000000000000000000000000000000000000000000000000011010000010001111001100100011
0000000000000000000000000000000000000000000000000000000000000000000000000000000000000000000000000000000000000000000000000000000000000000000000000000000000000000000000000000000000000000000000000000000000000000000000000000000011111001001010010010011000001001
0000000000000000000000000000000000000000000000000000000000000000000000000000000000000000000000000000000000000000000000000000000000000000000000000000000000000000000000000000000000000000000000000000000000000000000000000000000000000100111011011111001100011101
0000000000000000000000000000000000000000000000000000000000000000000000000000000000000000000000000000000000000000000000000000000000000000000000000000000000000000000000000000000000000000000000000000000000000000000000000000000000000001111000111100110111111001
0000000000000000000000000000000000000000000000000000000000000000000000000000000000000000000000000000000000000000000000000000000000000000000000000000000000000000000000000000000000000000000000000000000000000000000000000000000000001100000110110000100011101101
0000000000000000000000000000000000000000000000000000000000000000000000000000000000000000000000000000000000000000000000000000000000000000000000000000000000000000000000000000000000000000000000000000000000000000000000000000000011101100000101000000100100011101
0000000000000000000000000000000000000000000000000000000000000000000000000000000000000000000000000000000000000000000000000000000000000000000000000000000000000000000000000000000000000000000000000000000000000000000000000000000010111111000100011111001011100100
0000000000000000000000000000000000000000000000000000000000000000000000000000000000000000000000000000000000000000000000000000000000000000000000000000000000000000000000000000000000000000000000000000000000000000000000000000000000010110110101110000010011010110
0000000000000000000000000000000000000000000000000000000000000000000000000000000000000000000000000000000000000000000000000000000000000000000000000000000000000000000000000000000000000000000000000000000000000000000000000000000011111010000001000010010011011110
0000000000000000000000000000000000000000000000000000000000000000000000000000000000000000000000000000000000000000000000000000000000000000000000000000000000000000000000000000000000000000000000000000000000000000000000000000000000100101111001111111011000001100
0000000000000000000000000000000000000000000000000000000000000000000000000000000000000000000000000000000000000000000000000000000000000000000000000000000000000000000000000000000000000000000000000000000000000000000000000000000011100101111111010000001000100111
0000000000000000000000000000000000000000000000000000000000000000000000000000000000000000000000000000000000000000000000000000000000000000000000000000000000000000000000000000000000000000000000000000000000000000000000000000000011100101000011100001100000011011
0000000000000000000000000000000000000000000000000000000000000000000000000000000000000000000000000000000000000000000000000000000000000000000000000000000000000000000000000000000000000000000000000000000000000000000000000000000000000101000100111111110100000001
0000000000000000000000000000000000000000000000000000000000000000000000000000000000000000000000000000000000000000000000000000000000000000000000000000000000000000000000000000000000000000000000000000000000000000000000000000000011110111111011000001000111111111
0000000000000000000000000000000000000000000000000000000000000000000000000000000000000000000000000000000000000000000000000000000000000000000000000000000000000000000000000000000000000000000000000000000000000000000000000000000011110001000111001110001011101100
0000000000000000000000000000000000000000000000000000000000000000000000000000000000000000000000000000000000000000000000000000000000000000000000000000000000000000000000000000000000000000000000000000000000000000000000000000000000001010111101010000101000001101
0000000000000000000000000000000000000000000000000000000000000000000000000000000000000000000000000000000000000000000000000000000000000000000000000000000000000000000000000000000000000000000000000000000000000000000000000000000011101111000000110000011000000100
0000000000000000000000000000000000000000000000000000000000000000000000000000000000000000000000000000000000000000000000000000000000000000000000000000000000000000000000000000000000000000000000000000000000000000000000000000000000000110111111100000011111111111
0000000000000000000000000000000000000000000000000000000000000000000000000000000000000000000000000000000000000000000000000000000000000000000000000000000000000000000000000000000000000000000000000000000000000000000000000000000011101010111111100000110000110011
0000000000000000000000000000000000000000000000000000000000000000000000000000000000000000000000000000000000000000000000000000000000000000000000000000000000000000000000000000000000000000000000000000000000000000000000000000000000000111000100010011101011110110
0000000000000000000000000000000000000000000000000000000000000000000000000000000000000000000000000000000000000000000000000000000000000000000000000000000000000000000000000000000000000000000000000000000000000000000000000000000000001100111011000010000100010110
0000000000000000000000000000000000000000000000000000000000000000000000000000000000000000000000000000000000000000000000000000000000000000000000000000000000000000000000000000000000000000000000000000000000000000000000000000000000010001111110000001001000000100
0000000000000000000000000000000000000000000000000000000000000000000000000000000000000000000000000000000000000000000000000000000000000000000000000000000000000000000000000000000000000000000000000000000000000000000000000000000000000101000110010000110011110000
0000000000000000000000000000000000000000000000000000000000000000000000000000000000000000000000000000000000000000000000000000000000000000000000000000000000000000000000000000000000000000000000000000000000000000000000000000000011111100111100011111000100000000
0000000000000000000000000000000000000000000000000000000000000000000000000000000000000000000000000000000000000000000000000000000000000000000000000000000000000000000000000000000000000000000000000000000000000000000000000000000011110001010010100001111100000100